TRT-5105-EntropyCalibration
tensors: 3f99411a
374: 3db696b4
375: 3df8059f
378: 3d5c5679
381: 3dc546b0
385: 3dc201b7
387: 3d9b6589
390: 3d5ba9db
393: 3d811a31
397: 3da08271
400: 3d43b6e7
403: 3d952e35
407: 3da47dd3
410: 3d8a10cb
413: 3d725ea1
417: 3da18dd9
419: 3dda6cf0
422: 3d80bb8b
425: 3d83dc32
429: 3dc04247
432: 3d705645
435: 3d812fae
439: 3dda03be
442: 3da733ac
445: 3d9046bf
449: 3db293a9
452: 3d92dc16
455: 3d5b82e3
459: 3d9ecceb
461: 3dc26962
464: 3d625c00
467: 3d47fa0d
471: 3dbcc410
474: 3d3b4a12
477: 3d2685b6
481: 3db0ab02
484: 3d3b54a4
487: 3d4d1f7b
491: 3d8d1e36
494: 3d252bd8
497: 3d2bebc9
501: 3d930ff9
504: 3d1d890c
507: 3d373689
511: 3d9fe6d2
514: 3d1c07c2
517: 3cf518e8
521: 3d909bdc
523: 3db4b4f7
526: 3c9282dc
529: 3cad668d
533: 3da952fd
536: 3c83e611
539: 3c9ecfe4
543: 3dad6c1b
544: 3c5f4a4e
545: 3c17e36c
548: 3c5f4a4e
549: 3c9e9ed6
550: 3c422252
553: 3c9e9ed6
554: 3cdcd9ba
555: 3c934555
556: 3bff74cf
557: 3bff74cf
558: 3b482319
559: 3d124eb1
560: 3da5b49c
561: 3d84021a
562: 3d6d389f
563: 3d8c8e97
564: 3d7795dd
565: 3da80126
566: 3dccfc1f
567: 3dd85613
568: 3e3adc8e
569: 3dd1488f
570: 3ddbfe86
571: 3c865462
572: 3d82acc9
573: 3d6952c1
574: 3cfef8b6
575: 3d86d873
576: 3d49e30c
577: 3d030a2d
578: 3d76b646
579: 3d5efbbe
580: 3e363c17
581: 3d3a2cef
582: 3d1ffd0e
583: 3e27a3a9
584: 3cb3bea0
585: 3db8b68d
587: 3d9572d8
589: 3f1572d8
590: 3ca69af0
591: 3db203f5
592: 3d9203c5
593: 3d7b67f9
594: 3d92018e
595: 3d7458cb
596: 3d8f8233
597: 3db8adec
598: 3db9439d
599: 3e40e64a
600: 3dae7454
601: 3dc492ab
602: 3c3b6185
603: 3d94a070
604: 3d87fdb8
605: 3d19785c
606: 3d99b70d
607: 3d67d9c2
608: 3d198652
609: 3d791b0a
610: 3d693075
611: 3e57e822
612: 3d2f1509
613: 3d295096
614: 3deb0c0a
615: 3ca5342d
616: 3d9dead7
618: 3d8794c7
620: 3f8794c7
621: 3c5bf143
622: 3da5f57f
623: 3d943f94
624: 3d81b0d9
625: 3d8e48b3
626: 3d746a00
627: 3d78df77
628: 3da07ff6
629: 3da39ba3
630: 3e08bd8a
631: 3da0d788
632: 3daba807
633: 3c1378fb
634: 3da7fb7e
635: 3d95e33e
636: 3d2a6c65
637: 3d9a86a2
638: 3d663091
639: 3d0b95aa
640: 3d795e6c
641: 3d529a1b
642: 3e5a1087
643: 3d320ff1
644: 3d14cb95
645: 3dc0bfef
646: 3c997853
647: 3d9d606b
649: 3d882d71
651: 40082d71
652: 3c181913
653: 3da9944a
654: 3d8db2f6
655: 3d65c0fc
656: 3d7f2209
657: 3d55688f
658: 3d5b2128
659: 3d71c216
660: 3d71c216
661: 3e0264c9
662: 3d800ef1
663: 3d809401
664: 3bef1f41
665: 3d8cedf0
666: 3d844fc5
667: 3d06c0b3
668: 3d855618
669: 3d49eebc
670: 3cd89b3b
671: 3d537b29
672: 3d5378cb
673: 3e50ccf9
674: 3d30c27d
675: 3d0a29fb
676: 3db30422
677: 3c993c1c
678: 3d9778e2
680: 3d8161b9
682: 408161b9
683: 3b33a4c3
684: 3d7b61b9
685: 3d641d7b
686: 3d1eca8c
687: 3d4854ec
688: 3d50f968
689: 3d399be4
690: 3d536cc6
691: 3d53f4d3
692: 3db47641
693: 3d3cac68
694: 3d5421f3
695: 3b06d8ed
696: 3d5a7bec
697: 3d4b31a4
698: 3cd603dc
699: 3d42b057
700: 3d27ea21
701: 3c9b3c4a
702: 3d456714
703: 3d1d962e
704: 3e1ce35f
705: 3d1a2fec
706: 3d0e4a99
707: 3d943a67
708: 3c877471
709: 3d482c6d
711: 3d203801
713: 40a03801
714: 3ad200f6
715: 3ad944c9
716: 3b15428b
717: 3b8be37d
718: 3b510800
719: 3befbb1a
720: 3bf65492
721: 3bf96321
722: 3be5dfd4
723: 3be0c01a
724: 3a3c21c6
725: 3ac8dfea
726: 3ab10da2
727: 3b4029e5
728: 3a4e2e0e
(Unnamed Layer* 360) [PluginV2]_output_0: 3bdd05c2
(Unnamed Layer* 360) [PluginV2]_output_1: 40c14e99
(Unnamed Layer* 360) [PluginV2]_output_2: 3c010a14
(Unnamed Layer* 361) [PluginV2]_output_0: 3bf0ca49
(Unnamed Layer* 361) [PluginV2]_output_1: 40c14e99
(Unnamed Layer* 361) [PluginV2]_output_2: 3c010a14
(Unnamed Layer* 362) [PluginV2]_output_0: 3bee8cd3
(Unnamed Layer* 362) [PluginV2]_output_1: 3f25b489
(Unnamed Layer* 362) [PluginV2]_output_2: 3c010a14
(Unnamed Layer* 363) [PluginV2]_output_0: 3bf350ee
(Unnamed Layer* 363) [PluginV2]_output_1: 4067daee
(Unnamed Layer* 363) [PluginV2]_output_2: 3c010a14
(Unnamed Layer* 364) [PluginV2]_output_0: 3ba22cdd
(Unnamed Layer* 364) [PluginV2]_output_1: 3f078224
(Unnamed Layer* 364) [PluginV2]_output_2: 3c010a14
scores: 3befe499
boxes: 40c14e99
classes: 3c010a14
