TRT-5105-EntropyCalibration
tensors: 3f99411a
374: 3db6c430
375: 3e078ffa
378: 3d5c8476
381: 3dc563ff
385: 3dfae5ac
387: 3db3a38d
390: 3d828049
393: 3d7dfb7c
397: 3da067dd
400: 3d5e72c4
403: 3dabbe4e
407: 3da4c2cd
410: 3d97b330
413: 3d83300c
417: 3da7d258
419: 3de1f9f2
422: 3d848d45
425: 3d8e5e7d
429: 3dcecfdc
432: 3d73a0d4
435: 3d880916
439: 3db98fb8
442: 3da9493e
445: 3d904dc3
449: 3dfb3fdb
452: 3d933f91
455: 3d6181cf
459: 3da7fd16
461: 3dbedb36
464: 3d653417
467: 3d5297bd
471: 3dbf37c6
474: 3d4013ab
477: 3d268c0c
481: 3db24bc6
484: 3d3497a4
487: 3d49d0d6
491: 3da51ee1
494: 3d314ba0
497: 3d342d93
501: 3d9f5ba4
504: 3d272e95
507: 3d4423bf
511: 3da97da7
514: 3d1876f7
517: 3ceccf4e
521: 3d8d9220
523: 3daddd7d
526: 3c9b1fce
529: 3ca5c5f4
533: 3daa24f8
536: 3c87b9e1
539: 3ca8b4f7
543: 3db5f87f
544: 3c68cb37
545: 3c2afc5f
548: 3c68cb37
549: 3ca6603c
550: 3c4298f9
553: 3ca6603c
554: 3ce53cb8
555: 3c970092
556: 3c0ab44c
557: 3c043c29
558: 3b3de04d
559: 3d19d881
560: 3da2c145
561: 3d78c3a0
562: 3d4f8667
563: 3d8b56ae
564: 3d76274f
565: 3da1a1f6
566: 3dc9aa6c
567: 3dcaca5b
568: 3e29d755
569: 3dc270ff
570: 3ddada30
571: 3c8ae112
572: 3d7e42ed
573: 3d76605b
574: 3d02f2a2
575: 3d861904
576: 3d4587a4
577: 3d01d40b
578: 3d6db3f0
579: 3d5bea87
580: 3e324d92
581: 3d468e2f
582: 3d1f3e75
583: 3e28b266
584: 3cc1637f
585: 3db808f7
587: 3d95c1c9
589: 3f15c1c9
590: 3caece58
591: 3dac85f8
592: 3d8a3c69
593: 3d6ed359
594: 3d8fed62
595: 3d5ff4de
596: 3d899bce
597: 3db2755b
598: 3db37305
599: 3e3667f3
600: 3dae63b6
601: 3dbd99de
602: 3c425923
603: 3d94cbc9
604: 3d8a67c1
605: 3d11ddf1
606: 3d8dea3d
607: 3d51ce3d
608: 3d180f85
609: 3d7a4702
610: 3d630da7
611: 3e51372d
612: 3d2b443a
613: 3d29623e
614: 3e173586
615: 3c95dd48
616: 3da4f403
618: 3d8d9f2f
620: 3f8d9f2f
621: 3c5f47d7
622: 3da36558
623: 3d951b5b
624: 3d6ebd06
625: 3d90f177
626: 3d65bde2
627: 3d741e28
628: 3da2da72
629: 3da32b0c
630: 3e02bc84
631: 3d99adf8
632: 3da30399
633: 3c1b9205
634: 3d962cb9
635: 3d95a055
636: 3d23bb31
637: 3d8ff4d6
638: 3d65a7c7
639: 3d0b6d55
640: 3d71c3ad
641: 3d53e7ec
642: 3e54a8a2
643: 3d2cf169
644: 3d197d0a
645: 3dbcbdc2
646: 3c9ce36b
647: 3d9da0c3
649: 3d88651e
651: 4008651e
652: 3c09da6e
653: 3d95d67a
654: 3d75f116
655: 3d55c8ba
656: 3d6df78b
657: 3d5cfcdd
658: 3d5a598e
659: 3d632ce1
660: 3d632ce1
661: 3df231c7
662: 3d7307ff
663: 3d75735e
664: 3bf90901
665: 3d77c937
666: 3d77829e
667: 3d031afb
668: 3d7655ea
669: 3d368858
670: 3cc75f49
671: 3d54ebf4
672: 3d3369f1
673: 3e4adf56
674: 3d246d60
675: 3d0954f8
676: 3db0730a
677: 3c8d18d6
678: 3d8a2a77
680: 3d6c0831
682: 406c0831
683: 3b2ecafe
684: 3d785727
685: 3d4a15bf
686: 3d15df3d
687: 3d3fd180
688: 3d3f74c2
689: 3d2f0fe7
690: 3d476788
691: 3d29c8f8
692: 3da9dc50
693: 3d359c5d
694: 3d3aaf62
695: 3b052e4b
696: 3d5b18eb
697: 3d4ec309
698: 3cc8d990
699: 3d6498cd
700: 3d122cee
701: 3c8d0236
702: 3d4222f5
703: 3d0f59c8
704: 3e151e83
705: 3d0f2881
706: 3d05e58b
707: 3d8d74c6
708: 3c6a2926
709: 3d231a53
711: 3d028c22
713: 40828c22
714: 3a59ddcc
715: 3ac8ed8d
716: 3b1ca191
717: 3ba26735
718: 3a0fac9d
719: 3bea60c4
720: 3bec9d45
721: 3bfdbc8e
722: 3bfaf763
723: 3ba07963
724: 3ab2c75a
725: 3ab3f3d0
726: 3aed8f43
727: 3b466011
728: 397b3d0b
(Unnamed Layer* 360) [PluginV2]_output_0: 3c0ebef8
(Unnamed Layer* 360) [PluginV2]_output_1: 40876b02
(Unnamed Layer* 360) [PluginV2]_output_2: 3c010a14
(Unnamed Layer* 361) [PluginV2]_output_0: 3be5190c
(Unnamed Layer* 361) [PluginV2]_output_1: 40a10c14
(Unnamed Layer* 361) [PluginV2]_output_2: 3c010a14
(Unnamed Layer* 362) [PluginV2]_output_0: 3beed076
(Unnamed Layer* 362) [PluginV2]_output_1: 40716ee6
(Unnamed Layer* 362) [PluginV2]_output_2: 3c010a14
(Unnamed Layer* 363) [PluginV2]_output_0: 3bef7d64
(Unnamed Layer* 363) [PluginV2]_output_1: 40a10c14
(Unnamed Layer* 363) [PluginV2]_output_2: 3c010a14
(Unnamed Layer* 364) [PluginV2]_output_0: 3b38445b
(Unnamed Layer* 364) [PluginV2]_output_1: 3ea31e55
(Unnamed Layer* 364) [PluginV2]_output_2: 3c010a14
scores: 3bf892a1
boxes: 40a10c14
classes: 3c010a14
