TRT-5105-EntropyCalibration
tensors: 3f99411a
374: 3db57dde
375: 3dd40682
378: 3d5c0e28
381: 3dc68aa2
385: 3dbf0468
387: 3d9bbeff
390: 3d50d141
393: 3d7c1003
397: 3d9c702f
400: 3d437f35
403: 3d921f35
407: 3da04a26
410: 3d89f755
413: 3d78b489
417: 3da08bcd
419: 3dcad62e
422: 3d711b22
425: 3d81bf41
429: 3d98aea0
432: 3d71dd6c
435: 3d7751a5
439: 3dd88bcb
442: 3da68a15
445: 3d91b80e
449: 3dca2e42
452: 3d91eaea
455: 3d5bf191
459: 3d933bbb
461: 3dbb1104
464: 3d54ad57
467: 3d4e6437
471: 3dbc6837
474: 3d370943
477: 3d2989c2
481: 3dba1996
484: 3d2d0c9a
487: 3d414f20
491: 3d8b554a
494: 3d2208f2
497: 3d23322f
501: 3d916167
504: 3d17c3ab
507: 3d32d346
511: 3d9fc2f1
514: 3d0ccfe0
517: 3cf20a3c
521: 3d8e4e94
523: 3dac168b
526: 3c9fca74
529: 3cb572cb
533: 3da605fe
536: 3c7f739a
539: 3c96ad12
543: 3da63f11
544: 3c4df0cb
545: 3c16027b
548: 3c4df0cb
549: 3c987c4c
550: 3c358601
553: 3c987c4c
554: 3cd61e8f
555: 3c90ffd4
556: 3c032735
557: 3c099a27
558: 3b306fd7
559: 3cef7b27
560: 3da6c34c
561: 3d8973d2
562: 3d6c5676
563: 3d92d42c
564: 3d89159f
565: 3d9eaa97
566: 3dd9c71b
567: 3dddfedc
568: 3e477bce
569: 3dd3f396
570: 3dee4fb5
571: 3c7e782f
572: 3d8106a2
573: 3d651d91
574: 3d019afc
575: 3d87c24d
576: 3d444014
577: 3d08feab
578: 3d7f535f
579: 3d5f973c
580: 3e369475
581: 3d3344b2
582: 3d235d36
583: 3e2ee39d
584: 3cc168ad
585: 3dc87a25
587: 3da233fc
589: 3f2233fc
590: 3caa8c3c
591: 3da0eaf4
592: 3d854d9f
593: 3d857445
594: 3d93fcfd
595: 3d687e2d
596: 3d8d3e46
597: 3dbceee7
598: 3dc43e7a
599: 3e458edf
600: 3db80b8b
601: 3dcd1786
602: 3c399829
603: 3d966564
604: 3d88fab0
605: 3d207308
606: 3d974bfc
607: 3d69f8fe
608: 3d154546
609: 3d7aae32
610: 3d5b7cd1
611: 3e5c2b59
612: 3d2cc115
613: 3d2cda16
614: 3e0ef759
615: 3ca26efe
616: 3da8318d
618: 3d906765
620: 3f906765
621: 3c4ec0fc
622: 3db22cbc
623: 3d8e8d8e
624: 3d7623d3
625: 3d987228
626: 3d76ff6f
627: 3d7f581b
628: 3daec7fc
629: 3dab0644
630: 3e109c87
631: 3dac3a4f
632: 3db26582
633: 3c0b55aa
634: 3da4ec8c
635: 3da4a592
636: 3d289144
637: 3d9e63a9
638: 3d5e3517
639: 3d0c9441
640: 3d83ecf7
641: 3d54a06a
642: 3e5d5026
643: 3d2aa834
644: 3d16c69e
645: 3dda9a4b
646: 3ca36a9d
647: 3dabb2de
649: 3d949202
651: 40149202
652: 3c1a7ba0
653: 3dac26c1
654: 3d8f8c36
655: 3d669b92
656: 3d7fd210
657: 3d50f0b9
658: 3d60117a
659: 3d811161
660: 3d8876c8
661: 3dc14ea4
662: 3d7a39c6
663: 3d86fa57
664: 3be9914e
665: 3d9cf157
666: 3d8a5b3a
667: 3d0a424f
668: 3d86981d
669: 3d53e1c3
670: 3cd1d993
671: 3d79981a
672: 3d440dec
673: 3e530345
674: 3d2eeb6e
675: 3d0d5a03
676: 3db9fa6e
677: 3ca9a163
678: 3da20f7b
680: 3d8a6d04
682: 408a6d04
683: 3b2a5ab9
684: 3d790c28
685: 3d637e09
686: 3d25b5db
687: 3d50823a
688: 3d331152
689: 3d40a9d6
690: 3d40a38d
691: 3d42fe7c
692: 3dbf7c8e
693: 3d45132a
694: 3d5b7305
695: 3b170d59
696: 3d7c6f16
697: 3d5bde56
698: 3cf4da00
699: 3d4c8944
700: 3d370d4d
701: 3ca8bb0d
702: 3d42fdc8
703: 3d30c6a6
704: 3e260e3f
705: 3d25f6ab
706: 3d03b392
707: 3d93262f
708: 3c8c8460
709: 3d71837b
711: 3d414eac
713: 40c14eac
714: 3ad614fa
715: 3acdd982
716: 3acb76e8
717: 3b8315ed
718: 3b4a2a6d
719: 3bed3e50
720: 3beb152f
721: 3bef163c
722: 3bf45e4c
723: 3bde5026
724: 3a36c5c8
725: 3ac3fc50
726: 3a37caa5
727: 3b39b050
728: 3ab31043
(Unnamed Layer* 360) [PluginV2]_output_0: 3bd3ddbc
(Unnamed Layer* 360) [PluginV2]_output_1: 40e1911e
(Unnamed Layer* 360) [PluginV2]_output_2: 3c010a14
(Unnamed Layer* 361) [PluginV2]_output_0: 3be94de9
(Unnamed Layer* 361) [PluginV2]_output_1: 40e1911e
(Unnamed Layer* 361) [PluginV2]_output_2: 3c010a14
(Unnamed Layer* 362) [PluginV2]_output_0: 3bdee176
(Unnamed Layer* 362) [PluginV2]_output_1: 40e1911e
(Unnamed Layer* 362) [PluginV2]_output_2: 3c010a14
(Unnamed Layer* 363) [PluginV2]_output_0: 3bf7df22
(Unnamed Layer* 363) [PluginV2]_output_1: 3f6030c2
(Unnamed Layer* 363) [PluginV2]_output_2: 3c010a14
(Unnamed Layer* 364) [PluginV2]_output_0: 3bc4e407
(Unnamed Layer* 364) [PluginV2]_output_1: 3f049387
(Unnamed Layer* 364) [PluginV2]_output_2: 3c010a14
scores: 3bfa5007
boxes: 40e1911e
classes: 3c010a14
