TRT-5105-EntropyCalibration
tensors: 3f99411a
374: 3db68eb9
375: 3ddffdb1
378: 3d5c634b
381: 3dc55ab4
385: 3dbfcede
387: 3d9c2498
390: 3d5a8ceb
393: 3d7c05d5
397: 3d9a1cac
400: 3d4462a5
403: 3d9c5543
407: 3da430d3
410: 3d8b0494
413: 3d78d4f6
417: 3da41b62
419: 3dd1c11d
422: 3d8027d0
425: 3d7cbdf6
429: 3dbfbb47
432: 3d749afc
435: 3d874882
439: 3d9f6d36
442: 3dac092d
445: 3d933de6
449: 3db9e34e
452: 3d8e46cb
455: 3d64fbeb
459: 3d9d5a2d
461: 3dc253fb
464: 3d65cc03
467: 3d52bf20
471: 3db04f93
474: 3d3aeddb
477: 3d24f0f6
481: 3dba3680
484: 3d3bc1c7
487: 3d4dd34e
491: 3d8c9194
494: 3d25ea83
497: 3d328133
501: 3d9269fe
504: 3d1d254f
507: 3d321743
511: 3da122bb
514: 3d16aa3f
517: 3cf079d0
521: 3d8f683b
523: 3db2ae66
526: 3c922613
529: 3caeb5ef
533: 3daafa86
536: 3c8e6eab
539: 3c9af615
543: 3da75559
544: 3c68fedf
545: 3c17a557
548: 3c68fedf
549: 3ca0acb4
550: 3c3b4001
553: 3ca0acb4
554: 3ce02557
555: 3c9abcbe
556: 3c04639c
557: 3c08bf14
558: 3b3e0c2f
559: 3d144c5a
560: 3d9e1462
561: 3d7e6a84
562: 3d5ccc30
563: 3d8816c2
564: 3d7ae2ef
565: 3da524b7
566: 3dcbf199
567: 3ddb7096
568: 3e3a0aff
569: 3dcf0ec5
570: 3ddac521
571: 3c89ef2b
572: 3d82e78c
573: 3d68871a
574: 3d025389
575: 3d8af4de
576: 3d4eef3e
577: 3d000e0f
578: 3d72af0e
579: 3d532869
580: 3e36e968
581: 3d388de9
582: 3d21a47b
583: 3e215345
584: 3ccccd12
585: 3dc19534
587: 3d94f496
589: 3f14f496
590: 3caa61d2
591: 3dac76e1
592: 3d909d82
593: 3d763edf
594: 3d91a2c4
595: 3d67bba4
596: 3d8d282c
597: 3db3a849
598: 3db99c0c
599: 3e29f601
600: 3dae7432
601: 3dc26764
602: 3c3985ae
603: 3d939ed2
604: 3d8c01b1
605: 3d2079e2
606: 3d947984
607: 3d607f71
608: 3d131110
609: 3d843bef
610: 3d6255b5
611: 3e5a16b0
612: 3d2a1bf6
613: 3d27a10f
614: 3de9f602
615: 3ca48d29
616: 3da50315
618: 3d8dac1f
620: 3f8dac1f
621: 3c5bb974
622: 3dac67b6
623: 3d973569
624: 3d8305ef
625: 3d95f3b6
626: 3d72d390
627: 3d7f300a
628: 3d9f5c00
629: 3d9fb411
630: 3e082a86
631: 3d9ca3b9
632: 3dabd8e7
633: 3c132f24
634: 3da46100
635: 3d8e9312
636: 3d3593ac
637: 3d936c5d
638: 3d60c706
639: 3d0ef9ec
640: 3d7c4bbd
641: 3d56e68a
642: 3e5cff23
643: 3d27a7e4
644: 3d1a4d47
645: 3dc0d668
646: 3ca065e7
647: 3da687ec
649: 3d901944
651: 40101944
652: 3c172777
653: 3d9578ec
654: 3d88a3ae
655: 3d605167
656: 3d892feb
657: 3d58f78c
658: 3d5f603c
659: 3d6f8620
660: 3d6e9f56
661: 3e04b0ba
662: 3d77ab44
663: 3d7ffd59
664: 3bec71c4
665: 3d890fc4
666: 3d894a63
667: 3d077fb8
668: 3d7d9f1d
669: 3d4c03c8
670: 3cd77fe2
671: 3d5d0bd2
672: 3d47c4f0
673: 3e53b836
674: 3d34ce82
675: 3d09ae57
676: 3dc1ddd3
677: 3c9bddf2
678: 3d8ec68d
680: 3d73e828
682: 4073e828
683: 3b33628f
684: 3d7cbf47
685: 3d5a9ba7
686: 3d1cf8c8
687: 3d4ae944
688: 3d2bc8ca
689: 3d42622a
690: 3d4a67d9
691: 3d429498
692: 3dc2e251
693: 3d3dcd1f
694: 3d49f06c
695: 3b07983f
696: 3d615a47
697: 3d485516
698: 3cca8383
699: 3d4e779b
700: 3d2b1c12
701: 3caf82b3
702: 3d3251c9
703: 3d3844f8
704: 3e23de17
705: 3d1946d7
706: 3d07cf62
707: 3da2d360
708: 3c791b00
709: 3d7ebc25
711: 3d4be3c2
713: 40cbe3c2
714: 3ad7bb9d
715: 3add8c0f
716: 3b1c4ca9
717: 3bdb020c
718: 3b301ae0
719: 3be8d246
720: 3bf049d9
721: 3bfb6ac6
722: 3c0153c2
723: 3bce53fb
724: 3a3be7f0
725: 3ac2bff8
726: 3ab99e08
727: 3b385d8c
728: 3abd38ea
(Unnamed Layer* 360) [PluginV2]_output_0: 3bdc3e25
(Unnamed Layer* 360) [PluginV2]_output_1: 41416edc
(Unnamed Layer* 360) [PluginV2]_output_2: 3c010a14
(Unnamed Layer* 361) [PluginV2]_output_0: 3bf0dd62
(Unnamed Layer* 361) [PluginV2]_output_1: 41028b7d
(Unnamed Layer* 361) [PluginV2]_output_2: 3c010a14
(Unnamed Layer* 362) [PluginV2]_output_0: 3beaea38
(Unnamed Layer* 362) [PluginV2]_output_1: 41416edc
(Unnamed Layer* 362) [PluginV2]_output_2: 3c010a14
(Unnamed Layer* 363) [PluginV2]_output_0: 3bee4770
(Unnamed Layer* 363) [PluginV2]_output_1: 41416edc
(Unnamed Layer* 363) [PluginV2]_output_2: 3c010a14
(Unnamed Layer* 364) [PluginV2]_output_0: 3baa0146
(Unnamed Layer* 364) [PluginV2]_output_1: 41416edc
(Unnamed Layer* 364) [PluginV2]_output_2: 3c010a14
scores: 3bf87713
boxes: 41416edc
classes: 3c010a14
