TRT-5105-EntropyCalibration
tensors: 3f99411a
374: 3db67a61
375: 3dfd309d
378: 3d5c510a
381: 3dc552f5
385: 3dfc03d4
387: 3db4a780
390: 3d74df9b
393: 3d7df2f7
397: 3da3d911
400: 3d5bc655
403: 3dab59b9
407: 3da7bae9
410: 3d97bc4e
413: 3d834af4
417: 3daf24b7
419: 3ddb6669
422: 3d84890f
425: 3d8da5e9
429: 3dc33da2
432: 3d722efb
435: 3d8cf9ca
439: 3dd81b62
442: 3dae2e64
445: 3d98692a
449: 3dc4913d
452: 3d9cf6f2
455: 3d63ba38
459: 3da9c6fa
461: 3dc5a323
464: 3d6fdb17
467: 3d57b447
471: 3db88975
474: 3d3dabf8
477: 3d224f60
481: 3db603c3
484: 3d35057c
487: 3d52865e
491: 3da1576a
494: 3d24d0fe
497: 3d3f2c84
501: 3d91c0fd
504: 3d21d42a
507: 3d3fc3ee
511: 3da4e665
514: 3d1e15f9
517: 3cedd50d
521: 3d8dde28
523: 3db80a04
526: 3c9eefb0
529: 3cb31042
533: 3daa76b8
536: 3c8a1cfd
539: 3ca7463b
543: 3dad1f5a
544: 3c639444
545: 3c19ea63
548: 3c639444
549: 3ca33ba4
550: 3c3fbfef
553: 3ca33ba4
554: 3ce2e23f
555: 3c985571
556: 3c0c0568
557: 3c052923
558: 3b4e8823
559: 3d1cb2ce
560: 3daa6d1e
561: 3d772b50
562: 3d55c433
563: 3d8849f3
564: 3d72c39c
565: 3d9de5e9
566: 3dca44c7
567: 3dd121c3
568: 3e43cf81
569: 3dc0f304
570: 3dd2573e
571: 3c8ff3f9
572: 3d8346a7
573: 3d735c37
574: 3d0546f6
575: 3d8485aa
576: 3d4a79eb
577: 3cfbfda9
578: 3d78025e
579: 3d5b7c6a
580: 3e31e4d3
581: 3d45facd
582: 3d1faa1c
583: 3e20f607
584: 3cbf8853
585: 3dbaba62
587: 3d971432
589: 3f171432
590: 3ca8b597
591: 3da92d7e
592: 3d8bd74e
593: 3d737c8b
594: 3d8f1a7d
595: 3d60e2f6
596: 3d90b986
597: 3db0ea8f
598: 3db4e142
599: 3e19cbf9
600: 3daa184e
601: 3dbb718a
602: 3c4673c1
603: 3d8ec513
604: 3d88457b
605: 3d1aa0b5
606: 3d923a65
607: 3d5aeb77
608: 3d1093f9
609: 3d7ac06d
610: 3d5e0a7b
611: 3e54f147
612: 3d368981
613: 3d264901
614: 3df56eaa
615: 3ca686f8
616: 3da6a9e7
618: 3d8f1723
620: 3f8f1723
621: 3c57a517
622: 3da3f7cd
623: 3d9359fe
624: 3d6b73d1
625: 3d935092
626: 3d6cba90
627: 3d79f86b
628: 3d993093
629: 3d9d820a
630: 3e02b6b5
631: 3d9ac002
632: 3da000a1
633: 3c148b4e
634: 3d9d858b
635: 3d94ae7f
636: 3d280720
637: 3d9118bd
638: 3d5952cb
639: 3d0d760e
640: 3d7172e3
641: 3d5c3c7f
642: 3e57ac32
643: 3d35fb80
644: 3d0f2452
645: 3dbb4c35
646: 3c998766
647: 3d980cdd
649: 3d83918f
651: 4003918f
652: 3c1dc593
653: 3d950a27
654: 3d8487c5
655: 3d64d4c6
656: 3d79a6c2
657: 3d50e864
658: 3d5a5e00
659: 3d6c5654
660: 3d657576
661: 3df5dbd5
662: 3d6fec74
663: 3d70294c
664: 3bf3465d
665: 3d8c8c6b
666: 3d7025c4
667: 3d0d525f
668: 3d80d917
669: 3d3a52f6
670: 3ccf37d1
671: 3d555899
672: 3d36bc34
673: 3e4cd1d7
674: 3d245631
675: 3d0e4d20
676: 3db9efc4
677: 3c8a98cd
678: 3d97ebc7
680: 3d81c3dd
682: 4081c3dd
683: 3b2cd036
684: 3d7bac8b
685: 3d44775c
686: 3d111f86
687: 3d5d401b
688: 3d3495af
689: 3d3b2b31
690: 3d497629
691: 3d40a9cc
692: 3dbbef00
693: 3d38a780
694: 3d4a4b6d
695: 3b177d8f
696: 3d4991b3
697: 3d44fa32
698: 3cc0cadc
699: 3d3223dd
700: 3d23e1eb
701: 3c8cd2d8
702: 3d387608
703: 3d2401c5
704: 3e1c64f3
705: 3d14f5e9
706: 3d07ef00
707: 3d9720e8
708: 3c6871f2
709: 3d70592c
711: 3d405fe8
713: 40c05fe8
714: 3ad11f64
715: 3ac7ee38
716: 3af67c82
717: 3bddc407
718: 3b257f6c
719: 3bf07275
720: 3bef98cb
721: 3bf1167e
722: 3be6e9a8
723: 3bd06d48
724: 3a906521
725: 3aba7694
726: 3b1faef4
727: 3b16a389
728: 3a60c728
(Unnamed Layer* 360) [PluginV2]_output_0: 3be6a903
(Unnamed Layer* 360) [PluginV2]_output_1: 4124e98a
(Unnamed Layer* 360) [PluginV2]_output_2: 3c010a14
(Unnamed Layer* 361) [PluginV2]_output_0: 3be1e8a7
(Unnamed Layer* 361) [PluginV2]_output_1: 4124d2c7
(Unnamed Layer* 361) [PluginV2]_output_2: 3c010a14
(Unnamed Layer* 362) [PluginV2]_output_0: 3be57f2c
(Unnamed Layer* 362) [PluginV2]_output_1: 40f172ab
(Unnamed Layer* 362) [PluginV2]_output_2: 3c010a14
(Unnamed Layer* 363) [PluginV2]_output_0: 3bf23515
(Unnamed Layer* 363) [PluginV2]_output_1: 40ff5b1d
(Unnamed Layer* 363) [PluginV2]_output_2: 3c010a14
(Unnamed Layer* 364) [PluginV2]_output_0: 3b9c7bac
(Unnamed Layer* 364) [PluginV2]_output_1: 412bbb04
(Unnamed Layer* 364) [PluginV2]_output_2: 3c010a14
scores: 3bef7844
boxes: 4124c3c3
classes: 3c010a14
