TRT-5105-EntropyCalibration
tensors: 3f99411a
374: 3db6a4e8
375: 3db6a4e8
378: 3d61803b
381: 3dc5344c
385: 3dc1e90c
387: 3d9c1028
390: 3d522e81
393: 3d813d2a
397: 3d902426
400: 3d4389a4
403: 3d950d58
407: 3da11c51
410: 3d843c74
413: 3d7951b5
417: 3d9b91ae
419: 3dca3ac7
422: 3d71522e
425: 3d7ee3a9
429: 3d99e2fb
432: 3d73c665
435: 3d7b2b80
439: 3dd8980a
442: 3d9fed8d
445: 3d902735
449: 3dccb60c
452: 3d89a6aa
455: 3d599ea2
459: 3d9748c6
461: 3dba0ed0
464: 3d5f0284
467: 3d523933
471: 3dbc9b78
474: 3d369b79
477: 3d27b51e
481: 3dbac7d4
484: 3d30f393
487: 3d3e648d
491: 3d8fa578
494: 3d267770
497: 3d241cda
501: 3d94ab17
504: 3d15acb0
507: 3d26eaa5
511: 3d9f543a
514: 3d142c06
517: 3ce44ccc
521: 3d8d8058
523: 3dac320c
526: 3c98f72d
529: 3caf5f81
533: 3da3912e
536: 3c82e41c
539: 3c9bc342
543: 3da8b9c5
544: 3c4fa269
545: 3c134647
548: 3c4fa269
549: 3c9a425d
550: 3c325050
553: 3c9a425d
554: 3cd493ee
555: 3c920056
556: 3c0008bc
557: 3c0dc7a8
558: 3b2de309
559: 3cf07aa3
560: 3daa5ac2
561: 3d82aa9d
562: 3d6b3e60
563: 3d892f7c
564: 3d83aef8
565: 3da00a55
566: 3dde39e5
567: 3ddf168a
568: 3e49d3ff
569: 3dcdd8cf
570: 3df26bcb
571: 3c81e55f
572: 3d83ece0
573: 3d64fb35
574: 3d04a3a8
575: 3d89306f
576: 3d4e095d
577: 3d03e2c6
578: 3d7f51fe
579: 3d5a414d
580: 3e3728e5
581: 3d34cd7d
582: 3d246497
583: 3e37e2dc
584: 3cbde47b
585: 3dc0f2ed
587: 3d9c1cb2
589: 3f1c1cb2
590: 3c9f8c3e
591: 3d9e76bc
592: 3d86d146
593: 3d86ea5e
594: 3d993138
595: 3d67bf25
596: 3d916078
597: 3dbbc664
598: 3dc2044d
599: 3e4a7f99
600: 3db740d7
601: 3dcc35a3
602: 3c398908
603: 3d94264d
604: 3d896950
605: 3d1afc90
606: 3d9866c9
607: 3d57de23
608: 3d146889
609: 3d74cac5
610: 3d56c8c4
611: 3e5dbfbb
612: 3d2a0d41
613: 3d2b6fb6
614: 3dec6f09
615: 3ca9f611
616: 3da75586
618: 3d8faa7d
620: 3f8faa7d
621: 3c4e5ae0
622: 3db8bf27
623: 3d91b617
624: 3d7fdff0
625: 3d961826
626: 3d6bcf20
627: 3d81382b
628: 3da539b9
629: 3dab4eb2
630: 3e0c98c8
631: 3da9c6f7
632: 3dad10fb
633: 3c0f30e4
634: 3da0752e
635: 3da0a382
636: 3d299e6d
637: 3d9ff9c5
638: 3d60bbc3
639: 3d0b32e0
640: 3d80d848
641: 3d630949
642: 3e5f6e52
643: 3d2707f0
644: 3d1695eb
645: 3dd32c4b
646: 3ca1794a
647: 3daa972b
649: 3d939c86
651: 40139c86
652: 3c1b840f
653: 3da5f4e0
654: 3d8ca2a0
655: 3d558baf
656: 3d80c5cb
657: 3d58280c
658: 3d69c909
659: 3d80a0b3
660: 3d80bfc8
661: 3dc1baa1
662: 3d83a0a3
663: 3d84edc6
664: 3bf940cc
665: 3d8e0a4c
666: 3d8e0a4c
667: 3d0e1064
668: 3d812eea
669: 3d5a311e
670: 3ce1f196
671: 3d6c65dc
672: 3d4bf523
673: 3e58b8a6
674: 3d28b663
675: 3d1a649c
676: 3dc637f9
677: 3cb528af
678: 3dae3ce0
680: 3d94d3c7
682: 4094d3c7
683: 3b35ecfa
684: 3d81bd54
685: 3d69549c
686: 3d262661
687: 3d52572c
688: 3d4e8f17
689: 3d4cd15a
690: 3d4e9d89
691: 3d498cc2
692: 3dc0e570
693: 3d469d4b
694: 3d4c5732
695: 3b0db0c4
696: 3d692d6c
697: 3d705acb
698: 3cd25800
699: 3d4d2453
700: 3d2565ac
701: 3cbf3dd6
702: 3d393f9d
703: 3d485e43
704: 3e2819c1
705: 3d2381cf
706: 3d0579ec
707: 3d998fd0
708: 3c8b9030
709: 3d8de2a7
711: 3d632142
713: 40e32142
714: 3ad63b26
715: 3adb30b1
716: 3b1d52c8
717: 3be6d307
718: 3ba5fdbe
719: 3beed4ed
720: 3bf6aeca
721: 3bee336f
722: 3c031ce0
723: 3bfd8481
724: 3a3c39b2
725: 3ac3c97a
726: 3a38aa9e
727: 3b27f069
728: 3af51c0b
(Unnamed Layer* 360) [PluginV2]_output_0: 3bd94fb0
(Unnamed Layer* 360) [PluginV2]_output_1: 4161b161
(Unnamed Layer* 360) [PluginV2]_output_2: 3c010a14
(Unnamed Layer* 361) [PluginV2]_output_0: 3be80b7d
(Unnamed Layer* 361) [PluginV2]_output_1: 40e2a11e
(Unnamed Layer* 361) [PluginV2]_output_2: 3c010a14
(Unnamed Layer* 362) [PluginV2]_output_0: 3bde4900
(Unnamed Layer* 362) [PluginV2]_output_1: 4161b161
(Unnamed Layer* 362) [PluginV2]_output_2: 3c010a14
(Unnamed Layer* 363) [PluginV2]_output_0: 3beb874f
(Unnamed Layer* 363) [PluginV2]_output_1: 4161b161
(Unnamed Layer* 363) [PluginV2]_output_2: 3c010a14
(Unnamed Layer* 364) [PluginV2]_output_0: 3bb8d2e8
(Unnamed Layer* 364) [PluginV2]_output_1: 4161b161
(Unnamed Layer* 364) [PluginV2]_output_2: 3c010a14
scores: 3beb64ae
boxes: 4161b161
classes: 3c010a14
